// Neural Network Weights - Hex Format for $readmemh
// Generated by generate_hex_file.py
// Format: 16-bit signed integers (Q7.8)
// Total: 3265 parameters
//
// Memory Map:
//   0x0000 - 0x0C7F (0-3199):    W1 weights (100x32)
//   0x0C80 - 0x0C9F (3200-3231): b1 biases (32)
//   0x0CA0 - 0x0CBF (3232-3263): W2 weights (32)
//   0x0CC0 (3264):               b2 bias (1)
//

// W1 weights start
0032
0047
000C
0004
003F
0022
001D
0011
0019
003C
0057
FFF5
002F
004D
FFE8
FFE6
FFFE
FFFD
FF9E
005E
FFF8
0020
001D
000E
FFFB
0053
FFEB
0025
FFF9
FFEB
FFFA
FFC1
0028
0038
0005
FFF9
0017
000E
0024
FFF1
FF87
FFE9
0056
0001
001E
FFF7
FFF9
FFDC
FFE0
0015
FFE2
0008
FFEE
0014
0008
0029
FFE9
00A3
0039
FFE6
0003
FFFA
FFDE
FF85
0006
001D
0005
FFD2
0003
FFFC
000B
FFFA
FF6B
FFFF
0041
0015
0027
0005
FF97
FFED
FFFC
FFFC
0064
004F
0019
0003
FFEE
003C
003B
0070
FFF8
FFDD
0005
002A
FFF9
FF07
0054
FFA0
002B
FFB6
0029
001D
0018
002B
FFC5
0071
0036
FFE6
004C
0021
FF8E
FFED
FFDC
001E
007E
0015
FFCE
001D
0033
0049
000B
0040
0012
0021
FFF8
FFFF
0002
FF42
0055
FF3A
0020
000D
FFF1
0017
FFE5
000D
FFEA
0044
007D
0038
0049
0031
FF64
0016
0002
0010
00A7
FFE2
0019
001A
0017
FF94
FFEA
004E
0008
FFF6
0038
FFFD
0001
FF6F
0010
FEDC
001C
FFCC
0002
0016
0021
FFEE
FF62
001D
003C
000B
0049
0034
FF46
FFDD
FFE1
0024
0068
FFBA
0029
0022
002A
FF4B
0001
0049
0016
FFEB
005F
FFFD
FFD8
FFE5
FFA5
FED8
FFE4
FFF7
0055
000E
0021
0003
FF8F
001C
FFF3
0025
003C
0054
FFE7
FFE6
000B
0039
0027
FFCB
0008
0014
0029
FFA6
0009
005D
0026
FFFD
003F
0004
FFF9
0017
FFDF
FF3A
0026
FFF9
0063
FFFA
FFD1
0020
004D
006C
002B
001A
0004
0043
009F
FFEC
0017
0005
FFD2
0002
FFE3
FFFB
0063
FFC2
FFEE
0035
FFEC
FFDF
0007
000F
0008
0049
FFAF
FF67
FFD8
FFEA
FFE1
001C
FFE3
FFEA
FFDB
003C
005F
FFF1
002C
002B
0083
FFFE
001F
FFE2
FFF7
FFFB
0014
000D
000A
FFB6
FFF0
002B
0011
0027
003C
FFF0
FFD4
006C
FF8A
FF8F
0041
FFDE
FFF9
0005
FFEE
000F
FF98
0060
FFD8
000A
0017
0065
FFFC
FFF8
0003
0021
FFEF
FFB7
0000
0024
001C
FFE8
0002
0014
0000
000F
0085
FFF2
FFEB
001E
FFE4
003E
FFF3
0015
004A
0025
FFD0
FFF5
0030
0015
FF47
0004
005E
0040
0027
0020
0022
FFF9
FFAE
0003
FFF6
FFF7
002B
FFE3
0004
000C
0013
0004
0062
0024
0000
002E
FFFC
0027
000F
FFE6
0048
FFF8
FFE0
0017
0020
FFB8
FF65
0003
0030
0034
006F
FFED
000A
0022
001C
0024
0015
0006
001B
0001
FFD3
000C
FFF2
0021
0086
FFEF
FFD9
007C
FF71
FFC6
FFFE
FFF5
FFD7
FFF3
FFBE
FFEB
FFE1
FFD3
FF60
0012
FFFA
004E
0006
0002
0011
FFC8
FFEF
0026
FFF2
FFD3
002C
FFE3
0002
FFEC
FFF8
000F
004B
0002
FFF3
001C
FF4B
FF97
FFE9
FFF6
FFE5
000C
FFFA
002F
FFEE
FF61
FF9E
0012
0017
0049
001E
000C
003E
002A
0011
FFDF
FFFF
001B
FFD8
004B
FFD8
0032
0036
0007
0054
0013
0023
FFEB
FF94
FFCB
000E
0005
FFE0
FFFA
FFFA
0047
FFAD
FF87
FF97
003E
000A
004B
FFD1
0001
000D
002B
0003
001F
0007
FFAA
0007
0083
FFF5
0021
003C
0006
FFEA
0041
0020
FFE5
FFD3
FFD3
0003
0016
003C
0012
0024
0009
FF8E
FF81
FF59
0043
006A
002C
001E
000B
0064
FFF8
0015
005D
003C
FFAE
0012
0073
0016
006A
001E
0024
FFF4
0040
0004
FFF6
FFE4
FFC5
FFF9
0025
001F
0007
FFE7
0012
FFE3
0023
FFA4
0021
0068
0028
0000
FFD1
003D
FFDC
0025
FFFC
FFF4
FFF5
0050
0025
0006
002F
0033
001A
0019
FFE3
0011
FFE2
FFF8
FFCE
001C
001C
0034
FFFF
002A
001A
FFEA
0064
FFAC
FFF9
FFE9
FFF6
FFD0
0006
006A
FFE5
0032
FFFC
003B
FFEC
0056
007F
FFD9
0088
FFCE
001F
004B
FFE9
FFF5
0016
FFFD
FFE2
FFE2
000F
004F
0000
000F
0007
FF89
000D
FFD9
FFF7
FFF3
0018
0017
FFF2
0045
FFCD
005B
001A
FFE8
FFEF
004D
0030
0000
004D
0011
FFD0
003D
FFFD
0017
FFEC
0020
001C
FFF6
FFF1
0070
FFA3
FFF4
FFA8
FFB3
0067
FFF9
FFB9
000D
0041
0014
FFE8
0005
FFC7
0044
0010
0007
FFF4
0022
0043
FFB9
0039
0008
FF9F
0052
FF9A
FFB3
FFB4
0024
0016
0013
0021
0004
FFFF
FFBA
FFB5
0004
0057
0047
FFD0
004A
000F
0026
0029
002E
FFCF
001A
0004
000D
0039
003C
FFEF
000A
0056
FFC4
FFE2
FFFD
0007
FFE0
FFEC
0022
FFE4
FFE5
FFF0
004F
0015
FFEC
FFF7
FFD3
0012
FFFB
0007
0001
0040
FFEA
002B
FFEF
FFDE
0032
FFFD
FFDC
0008
002B
FFF0
FFFB
003B
FFF2
0000
FFF6
FFCD
FFB3
FFA9
0023
002A
FFC6
0025
0079
FFD1
FFEC
FFBD
FFE3
0077
002E
003E
002D
0022
FFF4
000B
0002
FFEA
0022
002D
FFD7
FFF3
0096
0010
FFFD
0055
0027
000C
0058
0013
FFCA
FFA3
FFFB
FFFD
FFFE
FFE0
0062
FFD2
FFDB
001D
0009
0052
0004
FFEA
0057
0016
FFE6
FFD8
0019
0031
FFF9
FFFA
FFD1
FFB1
0052
FFC8
FFD3
000B
0005
FFF8
002D
0035
002C
FFA3
0048
FFFB
0005
FFD4
0068
FFFA
FFE7
003E
000D
003A
0052
0056
000D
003F
FFEA
FFA0
0043
0032
FFE7
0038
FFBC
FFA8
0080
FFD9
FFEA
0003
0004
FFC7
000C
0025
FFE5
FFEE
FFFC
0031
FF8D
FFED
001A
001E
005C
005F
0002
0026
0021
0042
0026
0013
FFC7
FF52
000D
0066
0018
000B
0005
FFDA
0013
0014
0019
0025
0000
FFD0
0016
004D
0006
FFDD
001B
FFCC
FF92
0000
0030
0067
0040
006E
0000
002C
0047
007C
FFDE
000B
FFF0
FF0D
004D
006F
0008
FFDE
005A
FF9A
002B
FFB8
0014
FFE7
0011
0006
FFD5
001F
0068
FFD9
FFE5
0013
FFB4
0034
004C
003D
0024
0038
0000
0061
0018
0061
002A
002F
000D
FF50
0017
FFBA
FFEA
000D
0043
FF5A
0054
FFD6
FFED
0031
0033
002C
FFEF
0045
0021
FFE1
0002
FFF1
001B
FFFA
006B
0040
FFF2
0042
FFED
0025
0048
FFFE
0044
0027
0005
001E
FFFE
FF93
0010
FFF0
FFF1
FFAC
0051
FFD9
0052
FFE4
004F
004D
0024
000F
004E
000A
FFD9
FFCD
0047
0062
0043
FFD5
FFF8
0023
001E
004B
000A
FFB7
0022
004B
000A
007F
0045
000F
FFCE
FFF7
0053
FFED
004A
FFD4
FFEE
FFF4
0053
003D
0019
001D
001B
FFD9
FFDC
0012
0025
FFFD
0038
FFB4
0030
004D
FFEA
0013
0032
FFCE
0005
000C
FFFF
0053
0020
0020
FFF4
FFA3
001C
FFB4
004C
FF8E
FFDB
FFF5
FFFA
0011
0001
001E
0032
002C
FFE7
FFCF
0040
FFF2
0055
FFC6
0032
FFCF
003C
003F
0021
FFDC
0046
0050
0038
001C
FFE1
0046
FFC0
FFC7
0039
FF92
0078
FFB6
0013
FFD6
FFD8
FFDE
003B
FFED
0059
FFF9
FFBC
FFC7
0020
FFE2
0039
002D
FFE7
FFC9
FFF4
001F
FFF9
0046
FFEE
0055
0017
FFEE
003B
001B
FFE9
FFDA
0019
FFEA
004C
FFC4
FFF5
FFF1
0007
FFDD
0010
FFFA
0015
0028
FFC8
FFC0
0004
0024
FFEF
0012
FFBD
FFAF
FFEB
FFD8
FFEB
0036
FFE3
FFD9
FFBB
0036
0019
FFD6
FFA6
FF72
FFBC
003C
FFF8
FFA1
FFEB
FFD2
0047
FFFE
FFE9
005F
001B
FFB6
FFC4
FFD6
FF9C
FFD2
FFEA
FF7C
FFB8
FFBD
FFE7
0016
000C
0010
FFFC
0031
0023
FFFA
001E
FFCA
FFE9
FFCF
FFA2
005C
003F
FFBC
FF92
FFC9
FFD4
FF6E
0001
0028
FFFF
FFEE
FFE4
FFAF
FFD8
FF92
0059
FFC4
FFE0
0002
0001
FFE4
FFC5
FFD2
FFDE
0063
000F
FFC7
FFBC
0001
FFB6
FFE4
FFA2
0026
007B
FFC8
FFA3
FFE1
FFEB
FFCE
0060
FFB7
FFBB
0006
FFD2
FFC1
0010
FFB0
0060
0023
FFE5
002A
FFE0
FFE1
001B
FFD2
FFE5
004C
0012
FFED
FFCB
FFDF
FFEE
FFDA
FFDD
FFF0
008E
FFB1
0013
FFEA
FFF2
FFF8
0036
FFE3
FFEE
0042
003F
FFF9
FFDD
FFD0
0082
FFFC
001B
0032
0007
0010
001B
FFFD
FFC4
0018
0049
003B
FFE6
001D
0025
0004
FFE5
FFBB
0092
0043
000B
FF8B
0001
FFE4
FFC7
FFF8
000C
000F
0038
FFFB
0021
FFDF
0066
FFFF
0004
FFEE
0023
004B
002D
0005
FFDF
FFF1
0000
0004
FFEC
FFE9
0007
000C
FFDA
0016
0030
0032
0028
FF9B
FFF8
0008
FFA9
001B
FFE8
FFFD
0022
0001
0014
FFAF
005D
0030
002C
000D
0043
0088
006D
0009
0079
FFAA
004B
000D
FFCE
0019
0035
0052
FFE4
FFE1
FFF9
0034
0030
0021
FFFE
FFFF
FFA4
0001
0012
0019
0055
004F
0013
FFF1
0024
0021
0001
0019
005D
0051
0031
0009
005B
FFAB
0061
003A
FFE5
0023
0078
006A
0002
0050
FF86
000B
0028
00AB
000B
002D
FF7E
FFEF
FFCC
0045
FFEB
001B
0025
FFBA
FFB4
0023
0001
FFE0
FFD7
0052
0033
0018
0056
FFED
0029
FFF3
FFDF
FFEA
0053
FFEB
FFEC
FFD5
FF5D
FFE7
003F
00C9
FFED
0008
FF9F
FFF7
FFFC
FFE4
FFFD
FFD0
0019
FFE3
FF75
002D
002F
002A
000D
0003
0032
FFF2
FFDD
0004
FF97
0018
FFF4
003B
FFF4
0003
FFFB
FFF9
FF34
0023
0031
0042
0011
FFFB
FF8E
0026
FFF7
001E
0035
FFEC
FFD0
FFD3
FF96
FFF6
FFDA
FFDC
0012
FFE2
003B
FFE6
FFB1
0041
000B
000D
FFEB
FFBE
FFC5
FFD5
FFAD
FFC4
FF9F
FFDC
FFF3
0013
FFC8
0004
FFD3
FFBD
FFC3
FFE3
001C
FFDC
0033
FFC1
0020
0012
FFFB
000B
002C
FFD7
002D
FFB1
FFCA
0025
003F
FFC6
FFAC
FFC9
0014
0007
FFDD
FF80
FFBF
000E
FFFF
FFE4
FFA0
0009
FFD3
FFAD
FFF8
0043
0019
FFD6
002C
FFE2
FFB2
0062
0036
0007
0000
FFDE
0009
FFF6
FFC9
FFA2
004B
003C
0018
003F
FFDC
FFF3
0006
FF86
FFF1
FFD6
004F
FFF9
FFE2
0040
FF9C
005D
0044
FFC2
FFC6
FFD5
002A
0039
FF9D
0069
0049
0036
0014
FFDC
000B
0019
FFB2
FFBB
0038
0048
0011
0029
000B
FF8F
FFF8
FFDC
FFB9
FFF8
0080
FFF3
002D
006D
FFC5
0028
0011
0045
FFCB
FFF6
006C
004F
FFAA
0016
0059
0020
0040
0002
FFC0
0038
FF84
FFCC
002E
0056
0041
0030
FFED
FFD9
0026
FFB8
FF6C
FFCD
0047
FFB1
0031
001F
FF5A
0019
FFF3
000F
0041
000B
0058
0032
FF9D
FFF1
FFFD
0010
0014
000B
FFDB
0001
FFA6
FFBD
000A
FFE9
FFE6
0020
FFF5
FFDF
004F
FF35
FFC9
001F
0049
0014
000B
0062
FF87
004B
005C
FFFD
FFD5
FFB0
0095
0067
FF4D
0070
005F
006C
FFE2
FFA9
FFD8
0079
FF36
FF71
0016
0063
0037
0027
FFE8
FF86
0053
FFE5
FF50
FFE6
00A2
FFDA
0038
0078
FF81
006C
002C
FFBB
FFA6
FF0E
008D
0072
FEAE
00AF
00AD
00AA
FF9F
FF39
FF81
007D
FEA2
FEAE
FF94
00C2
00AE
00C2
FFAA
FE55
0084
0068
FE42
FEEE
00ED
FF58
00C3
00FB
FF4A
00DF
009C
FF5F
FFC6
FF6A
009A
008A
FEF2
0091
00BA
0035
FFA4
FF73
FF88
0099
FF04
FF3F
FFBD
0097
00B4
0057
FF99
FF32
005F
0046
FEE2
FF4B
00BF
FFBE
0096
00B9
FFB2
00B0
0064
FF9E
FFFA
FFE0
000E
0033
001C
0000
FFD5
FFF5
0006
000B
FFD1
FFD8
0005
000E
003E
003F
0049
0012
002D
FFF5
FFF2
FFB8
0029
FFF5
0012
002E
FFBC
FFF8
FFFB
0052
004E
0038
FFFB
0017
FF99
FFE2
0005
FFC5
FF71
0014
FFF3
0037
FFE0
FF92
001A
0041
0012
FFFF
0061
FF78
0025
FFFA
FF99
FF7F
003D
FFFF
FF95
003D
FFA5
FF8E
0067
0017
0062
0028
FFE5
FFCB
FFB8
FFEF
FFE0
FF9E
FFE7
0018
FFF8
FFEA
FFE2
FF82
FFC5
FFC2
FFBE
FFE4
004E
FFC3
FFB4
FFD3
FFF8
FFCF
FFDA
FFB2
FF8B
FFE7
FFA6
FFCE
000B
003B
FFFB
0013
FFAA
FFC4
FF92
FF9C
FFA8
FF93
FFCE
0011
FFE2
FFCF
FFD5
FFC8
FFD7
FFBF
0009
FFCE
FFAB
FF7C
000E
FF8C
FFE5
0027
FF7C
FF86
FFCB
000A
FF8D
FFDF
0009
FFF7
FFCA
FFBA
FFEB
0001
FF78
FFB5
FFEF
FFAD
FFCF
FFD0
0022
FFE6
FFEE
FF60
0005
FFFD
000E
FF99
FFB1
FF9F
000D
FFF5
FFB2
0015
FFCB
0001
FF87
0047
FF6C
FF96
FFE7
FFA3
FF91
0002
000C
0019
0004
FF95
FFB2
FFB6
FFB0
FFAF
FFEE
FFDB
0022
FF68
001C
FFD0
FFDB
FFD7
FFDD
FFDB
FFFB
FFD5
FFC8
0029
FFC9
FFF1
FFCF
FFDB
FFDC
FFB1
FFA5
FF80
FFB7
0009
FFF7
0007
FFBE
FFAE
FFE3
FFD4
FFC6
FFA7
000C
0018
000B
FFA7
001E
FFB3
0021
FFA2
FF90
FF9B
FFDF
FFF2
FF92
003F
FFB0
FFD0
FF7E
000E
FF97
FF9E
FFA3
FF65
FFAD
0040
0015
FFFD
FFAD
FF8A
FFE4
FFFE
FFBD
FF9C
0021
004C
001A
FFEC
0011
FFB0
FFE6
FFD8
FF74
FFE5
0036
FFE1
FFB0
0024
000E
FFFD
FFCA
0022
FFF1
FFA9
FF95
FF73
FFAE
003B
FFE0
002D
FFFB
FFFF
0041
FFD5
FFA9
FF9B
FFE9
006E
0040
FFCD
0066
001F
FFD5
FFD8
FFCE
0014
002A
0016
FFD1
0033
001D
0014
FFCB
007A
FFF1
FFC3
FFD6
FF78
FFAD
FFF5
0054
002A
FFD4
FFC9
0035
FFF4
FF97
FFC0
0024
006D
0030
FFC6
006A
FFED
0004
FFE4
FFD6
FFAC
0037
0065
FFEE
0008
0022
0047
FFA2
005D
FF89
FF8A
FFC5
FF92
FF9D
0011
005B
004B
FFED
FFCF
0054
FFD6
FFA0
FFBF
0045
007D
0013
FFD8
0049
FFEE
0012
FF77
FFFB
FFDA
0008
000C
FFDA
FFD8
002E
FFED
FFBC
005D
FFA7
FF76
FF98
FFBC
FFA5
0026
FFFB
0042
FFF0
FFC2
0071
FFEC
FFE9
FFAC
FFF7
006F
0014
FFE4
001F
FFCE
0012
FF99
FFFE
FFFD
002B
0046
FFF7
FFE1
0047
0039
FFD3
0065
FFF8
0008
FFA4
FFBF
000B
001E
004C
0048
FFF4
FF99
004C
FFEA
FFBB
FFE2
0008
0070
003D
FFE8
0014
0023
0031
FF8E
FFA5
FFE4
0051
0078
FFF1
0048
0042
000E
FFCD
0045
000C
FFB3
FFE1
FFCF
FFB1
001C
000A
0047
0021
FFE7
001B
FFE8
FFE8
FFD1
0007
0025
000B
001A
FFC9
FF96
001F
FFF7
0009
FFF2
0019
000F
FFDA
004F
001F
0031
FFF1
FFE9
FFC9
FFF9
FF6F
FFF1
FFAF
001C
001E
001A
003C
FFEA
0019
0048
0020
FFE6
0019
FFBF
003E
FFE4
FF5C
FFE3
0038
FFD6
000A
002D
0049
0049
0040
0052
0030
0029
0025
FFCF
002D
001C
FF8A
FFC2
FFB4
FFCA
FFBA
005C
0010
FFCA
0028
0026
0001
FFD9
0027
FF35
001F
001B
FF92
FFEC
0021
FFAE
FF9D
FFFD
000E
006B
001A
0024
0013
FFF9
005C
FF5E
FFE9
0030
FFDB
FF98
FFBC
FFF0
FFF3
0060
0012
0005
003B
0023
0023
FFD5
005A
FF21
FFA9
0008
0020
0013
000E
FFEA
FFD9
0001
FFD6
FFE6
0017
004D
0045
0032
001A
FF5D
FFE6
FFF3
FFE7
FFAD
FF98
0016
FFF3
004C
000B
FFC4
FF8E
FFF6
FFF4
FFCE
007B
FF6B
FF90
FFF7
FFF3
002E
005F
FFB0
FFB0
FFF9
FF3E
FF47
FFF4
0056
FFDB
FFE1
0031
FF2E
001D
0045
002A
FFCC
FF95
0037
FFED
FFF7
0024
0016
FF46
0030
001C
FFF4
FFF5
0020
FF98
0007
FFB8
FFF9
0064
FFE4
FFBE
0023
FF50
FEF1
0013
0038
0009
FFCE
001A
FF34
FFD9
FFF6
004C
FFA2
FF98
003B
FF60
FF6F
000C
FFD7
FFD3
002F
FFE9
FFCE
FFB5
0052
FFD2
0023
0008
0041
001D
FFEF
FFD1
FFFB
FF55
FF18
FFFE
0071
0012
FF27
002F
FF7C
FFE7
000C
0077
FFBF
FFB6
FFFC
FF31
FF30
0023
FFE6
FFF3
FFF5
002C
FFDF
FF88
002A
FFF1
FFE1
FFF6
FFF3
FFED
0001
FFA7
0038
FFA2
FFC2
FFF1
006C
001F
FF4C
FFF6
001C
0016
002E
005F
FFA8
FF8B
0054
FF9B
FF9B
0007
FFF7
FFFB
0014
FFEB
FFAE
0003
003F
0062
FFFC
003E
FFF4
FF49
FFEE
FFC4
FFFC
0067
0055
000B
004A
000F
FF49
001E
0072
FFBA
FFF3
FFE8
FF7E
FF8D
FFFF
0004
FFB9
0008
0020
FFE0
FFDD
FFE3
FFC6
FF69
FFF4
000C
0024
FFE4
FFDB
FEF1
0026
FFE0
0005
0074
0013
0002
007C
FFF5
FF31
0004
007B
FFEE
0010
FFA1
FF98
FF9A
FFB4
001E
FF80
0004
0001
0011
0029
0043
FFDC
FF29
FFD7
FFF0
FFEC
0013
0003
FF28
003E
FFD1
000E
0073
FFE9
0007
0055
FFDE
FFEF
002F
0014
FFF3
FFF4
FF8C
FFA6
FFBB
FF7E
0032
FFC2
0046
FFF1
000B
FFF4
0002
FFD0
FF22
000E
0035
FFF3
0073
000B
FF4A
0011
FFEC
FFFE
0005
0083
FFFB
0029
0035
009F
0027
003B
FFDB
0029
0035
FFCD
FFDF
FF28
0010
0005
FFFD
0034
FFF5
002C
0012
FFD7
FFF6
FFDB
005C
0028
0025
FFDF
0005
003D
FFB8
002D
FF52
0030
0041
0078
FFF3
0054
0015
FFCA
0016
003A
0029
FF96
FF98
FF32
0041
0066
0013
FFE8
002C
0010
002D
FFB6
006B
FFFD
FFD7
0000
FFC3
FFF7
00A7
0011
FFEA
000C
FF4F
000E
000C
0039
FFE6
0046
0023
FFA8
FFF4
FFF3
0053
FF9F
FFC3
FEFE
004C
0032
FFF5
0003
0020
FFDA
FFDB
FFE6
0087
003C
FF9A
FFE7
FF81
0011
0086
001C
FFC3
FFE0
000F
FFBA
FFE9
0010
FFF0
0051
FFF0
001E
FFF0
FFF6
0011
FFC3
FFBE
FF77
000E
001E
0016
0007
0038
0033
0033
FFF1
002F
0036
FF68
0019
FF33
001F
0047
0009
0007
004F
0059
FFEB
0028
0034
002A
0049
001F
000A
001D
002B
0013
FFCD
FFD4
FFBE
0007
0042
FFFD
000C
0055
000A
0014
FFEA
FFDB
000B
FF2F
FFCD
FFA4
0033
0051
0013
0031
FFFE
0063
FFEA
FFE6
FFF8
005A
0086
FFFA
0062
FFFF
FFD1
0063
FFC7
FFC9
0021
0013
0079
FFDF
0001
000F
FFF7
000D
FFEE
FFBC
003A
FF82
000D
004D
0019
FFDE
FFFE
FFFD
000A
0046
0040
FFFB
FFDE
FFEF
001A
000D
000F
FFC7
0011
0049
FFE7
FFFF
0093
0027
0075
001D
002A
002E
001E
002C
FFF4
FF86
001D
FFB2
FFF1
0056
FFFF
FFBC
0029
0019
0024
0044
FFF9
FFF5
FFF4
FFFC
0019
0026
FFEA
001B
FFDA
0049
FFFE
0002
004C
FFA3
0005
FFDA
FFF4
0000
FFF3
0011
FFF7
FFE5
0016
FFC5
FFC7
003F
002C
0003
002E
000B
FFCA
0030
0056
FFDC
FFBC
0054
004D
FFD7
FFAA
FFB4
FFEF
0018
FFC2
FFAB
0020
FF9B
FFFA
0037
FFF3
003A
001C
FFE5
FFD7
FFEE
FF90
FFD5
FFDA
0021
002C
001F
0046
0003
0011
002A
0017
FFD5
FFF1
004F
0003
001F
FFC6
FFD4
FFEC
001E
FFD6
FFE3
006D
FF5D
0013
FFC5
0002
0054
FFEC
001B
FFE4
0023
FF78
FFBA
FFD3
0062
004E
0057
0011
001A
0005
FFE0
0004
FFD7
0012
0058
0024
FFE0
FFC2
FFD3
FFE0
005D
FFD6
FFD5
006E
FFAA
FFDC
0008
FFE6
0000
FFF1
0011
FFFE
FFF8
FF85
FFD4
FFC1
0006
0008
0050
FFF5
FFEF
FFBC
FFC4
0010
FFEF
FFE2
FFF8
003F
FFFE
FFDA
FFCC
FFE0
FFF9
FFE3
FFC0
0040
FFEC
FFD1
FFD0
002A
FFFC
0034
FFFE
FFC6
0030
FFD7
FFE9
FFE1
005F
005B
FFF8
0037
0025
001A
FF93
0001
FFDB
002C
0061
FFF9
000F
FFC7
FFDF
FFF0
0047
FFB1
FFE0
0013
FFB6
001A
FFFF
FFF3
000D
FFE3
0004
FFDB
0033
FFFE
0019
FFEB
0052
0015
FFF4
FFFF
FFFA
FFCC
FFB5
FFE3
FFB7
FFFD
0018
FFA4
0017
0011
FFAA
0006
0075
FFEE
FFC4
0039
FFF9
FFFC
FFEF
FFEA
FFE9
FFEE
000C
FFE8
0012
FFF9
FFD0
FFFB
001F
002C
FFB9
0039
0018
FFE4
FF8C
FFEF
000A
FFD8
0060
FFA0
FFCD
FFC9
FFF2
FFD8
0016
FFD7
FFD7
FFED
FFFC
FFB9
FFF6
001E
0012
000B
0006
FFF8
0002
0011
FFFE
0002
0019
0025
0018
0006
0047
FFCA
FFB7
FFC2
FFCB
FFE4
0062
FF95
001A
0016
FFF2
FFE2
003E
FFE4
000F
001C
FFFA
FFFA
FFB5
0005
0015
FFD9
0022
FFDE
FFEB
FFFB
0030
FFD2
0050
0039
0010
FFCB
004A
FFE8
FFDA
FFD3
000E
FFCA
003C
FF95
FFE7
FFDA
FFBE
FFAC
0047
FFF5
FFCF
0014
FFD7
FFB7
0003
0026
FFF4
000F
0004
FFE0
FFD9
004E
0043
FFFB
0010
001D
000B
001B
002F
FFDF
FFDD
FFBE
0010
FFD8
002F
FF7B
0015
FFE5
FFE6
FFF6
0011
FFBF
001B
FFE2
0015
FFC5
FFF6
FFFF
0007
FFF1
0001
001B
FFE0
0016
0042
FFFB
FFEE
0033
FFC8
004E
0006
FFE2
0007
FFF6
0025
FFE6
0035
FFCA
FFF1
002E
FFF5
0021
001B
FFF9
FFD3
FFDE
0032
0014
0048
0008
0024
FFCD
FFDE
FFCF
0011
0036
005E
FFC9
0046
0015
FFCA
0045
0024
FFA3
0001
FFDD
FFA4
FFBC
0046
FFE5
001F
FFFD
FFD7
0000
FFFF
0004
FFD3
FFD1
0031
FFC8
0023
FFF9
FFFB
FFD4
000F
FFE1
FFC2
0017
0067
FF9D
0044
0025
FFB3
0034
0056
FFF5
FFF3
FFE6
FFAC
FFB1
0021
0008
FFEF
0032
FFFC
FFF3
003B
0015
FFF5
FF7C
001A
001A
FFEF
0003
000A
0019
FFFE
FFC2
FFEC
0018
0068
FFAF
000F
0000
FF9C
0043
007B
FFF0
0004
0017
0006
FFA3
002B
FFDB
000A
0018
FFD9
001C
FFFA
FFF2
FFED
FF9E
004C
FFD0
0025
FFF9
0007
0058
0034
FFEC
FFDC
0031
0021
FFC0
FFED
001A
FFAC
0039
005D
FFFD
FFF7
FFD5
FFEB
FFC7
002C
FFED
0029
FFF6
FFBB
000D
0016
FFE1
0004
FF7F
002B
FFE0
0010
002A
001E
FFF5
FFED
FFE0
FFAA
0000
003F
FFAD
000A
FFDA
FF72
0033
004E
FFC2
0022
000A
FFFE
000F
0031
0008
FFC3
004A
FFDC
0011
FFED
FFF6
FFC9
FF24

// b1 biases start
0003
002C
0029
0032
004F
001F
002D
0021
001B
000D
0000
0026
002C
0031
0025
0036
0031
0023
0007
004D
001D
FFD1
0051
0031
0031
000E
0028
003B
0006
0036
0032
0034

// W2 weights start
FF33
FF75
00C5
0088
FF6F
00A1
00AE
00BC
FF1A
FEF6
FF0A
00A2
FF2C
FF00
FEFC
00C8
00C2
009D
FEC6
FF41
00BB
00DF
FF42
FEF1
0074
FF24
00AE
0063
FF0E
00B0
00BF
FF45

// b2 bias
FFF1
